algorithms
##دد
الگورتھم
بد
اصو
مفید
例
تھا
词语
ط
##بق
##下
##杂
帮
طلبہ
方
دوسر
##iff
ن
ق
کی
تحر
##ڈ
##处
简
ایک
ٹوکنائزی
##统
بینک
##دا
经常
##ھم
##ompu
##قے
意
##单
处理
##izatio
挑
##然
##پ
##ب
理
##助
گف
subword
##oth
有
sy
##izati
cha
##为
##ق
##ئز
##ubw
capita
فرا
可以
##شک
ای
可
##رے
##ommu
##ت
wo
多语言
让
استعمال
##gorithms
##uch
sys
##د
预处理
capi
موجود
ف
الفا
##本
capit
##n
##词
##ورتھم
##owd
需
##e
金
书
学
بن
گفتگ
##人员
پھر
مف
##qui
河
这种
选
##نک
e
comput
r
划
##ا
##ستعم
对
گ
##کھت
人类
مخ
ٹ
使
学习
##ظ
歧
##دہ
زبا
##适
ماڈل
##thm
ذ
cr
##ھ
variati
##如
##含
for
l
仔
جملو
##ff
预处
ٹوکنا
ہوت
##解
تق
歧义
پروس
构
گفتگو
##究
##qu
##za
##rithms
خد
##ے
ٹو
کمپ
زب
ذی
##码
现代
دوس
##ع
سمجھنے
اند
学生
上
زبانوں
##t
پیچی
都
خدمات
大小
的
chal
طریقے
کنارے
算法
##好
سمجھ
مالی
##种
پروسی
复
理解
##型
مشکلات
##izat
##رت
wr
预
##سنگ
دیت
to
##g
带来
##ially
生僻词
b
کنا
##小
سکت
上下
标点
syst
使用
##义
一
##mpl
ب
لیے
نظا
word
مال
河边
##fo
##化
##ch
变化
##for
pr
##ل
exp
n
ٹوکن
例如
模
ت
ک
系统
##خ
##僻
##w
更
mod
子
##节
ٹوک
##thods
جبک
سکتے
پیچ
##rch
crowd
##类
variatio
قدرتی
ہیں
##达
اصول
کرتا
ابہ
书写
##建
银行
موج
ہے
تقسی
模型
分
带
بڑے
cho
语
ابہا
然后
wh
vari
给
##ئ
##c
hu
کمپی
##orithms
مختل
مطابق
محققی
##ڈل
جد
银
او
##点
لی
##常
off
合适
سباق
##位
##以
##此
金融
因为
ذیلی
o
因此
##是
by
پیدا
ca
ہوتا
##س
一个
قد
subw
##ح
var
##حق
معن
جمل
wri
writi
字
##مل
##وت
单
expr
##文
##نگ
算
大
和
##عم
##ش
##生
مخت
##iz
含
اوقا
##机
##v
سیکھتے
کریں
استعما
##ally
mo
##وٹ
##b
میں
##تعم
构建
ٹوکنائز
研究人员
va
选择
whi
句子
多语
سمجھن
##ط
اور
of
##نو
##quir
生僻
挑战
##mmu
##思
دیتی
##算
标
جم
复杂
##理
پی
研究
اص
人
choi
##代
根据
قدرت
مشکلا
م
单位
فر
دی
##择
جو
##fu
می
محقق
اس
##x
compl
خدم
تحریر
کمپیوٹر
##z
##i
##分
split
cap
انسا
was
capital
编码
##thms
##rowd
##ہ
但
设
##mm
计算
##细
ا
huma
编
##ٹ
الف
کو
##حقق
امل
اوقاف
计算机
مختلف
مع
حروف
##وٹر
##融
然
##器
大小写
相同
co
ٹوکنائزر
ch
##سے
##mpu
##ful
表达
##法
##d
句
##名
compu
ٹوکنائزیشن
变
ambigui
合
f
交流
v
不同
پیچیدہ
اہم
##计
多
需要
بڑ
##لف
但是
##arch
##ئزر
کر
دوسرا
##ادہ
##mb
جدید
计
##战
##边
会
字节
##zat
ambi
حرو
انس
根
##xt
包
更好
جملوں
th
##گ
p
chall
上下文
pu
##اڈل
##hm
گفت
سی
حر
自然
##چ
##人
##تے
##同
ذیل
##شن
کری
ambiguity
##员
u
生
خ
ہی
##ک
whil
spl
مطا
و
ambigu
چھوٹ
研
پھ
wor
包含
چھوٹے
س
##ص
سادہ
hum
##impl
wa
##r
##q
ان
##ly
simpl
capitalizatio
سک
##ال
##f
الفاظ
##ج
##据
##mp
##tho
ل
c
ح
اوق
##و
ج
##趣
نظ
ex
##行
در
##م
تحری
自
##ز
انداز
##مپ
##ں
دری
划分
طری
##来
ابہام
مفی
حصو
ایسے
تقسیم
##y
相
##ڑ
##وج
words
有趣
جب
##h
##لگورتھم
文
نظام
##کھ
مشک
##l
د
##写
fi
جبکہ
diff
معنی
##wd
جدی
仔细
有用
##bw
tok
t
##k
بی
a
##وس
فراہم
成
简单
fo
کے
##s
方法
##بہ
不
##ر
现
حصوں
سب
##流
d
文本
人名
byt
##thod
##نوں
amb
表
##cially
系
##ف
##ompl
含义
##ی
这
##رتھم
حص
##مجھ
##تھم
因
w
استعم
##言
بناتے
subwo
拼
##后
##习
چ
分词器
##语
choic
کرتے
بنا
بدل
##کھتے
##ty
##lgorithms
经
##جھ
##m
تقس
##روس
دریا
##th
##个
oft
محققین
##u
such
پ
##子
处
m
新
ہ
قدر
زبان
سیاق
spli
##用
拼写
کن
意思
مشکل
تھ
موجو
分词
##اق
commu
词
子词
h
املا
writ
##lly
##要
کرت
ز
subwor
帮助
语言
طل
انسان
##o
اندا
varia
##ہم
مط
##ithms
##p
چھ
variat
خدما
مدد
انسانی
طر
把
##گورتھم
交
s
i
sp
设计
ambig
پروسیسنگ
##a
تح
##ن
