系
ex
##gorithms
##常
##助
编
设
varia
##رت
##fo
学
标点
##点
##流
ان
tok
词
دیتی
چھوٹے
جب
##器
挑战
خدمات
##以
有
اوقاف
##شک
امل
##سے
预处理
##quir
اصول
上
##ئزر
##ا
capit
##ظ
##边
د
##下
##qu
##بق
##统
意思
语言
ت
subwor
اص
جبکہ
قد
سمجھن
موجو
##حق
chal
使
h
اندا
جملوں
##如
##ی
学习
دری
mod
دیت
ہوت
##پ
##wd
和
多语
##نوں
需
تقس
ٹوکنائزیشن
##人员
##处
例如
计算机
d
تقسیم
ب
##مجھ
##ful
##zat
طلبہ
##ff
بد
##ڑ
w
مفی
اصو
##文
标
ٹوک
##مل
##型
wh
جبک
ca
##وت
کمپیوٹر
##p
حص
##ٹ
需要
使用
##th
方
单位
歧义
ایسے
模
محققین
##lgorithms
expr
مختل
##ط
##ہ
was
پیدا
但
##لگورتھم
##م
دی
ابہام
va
让
##细
##来
اہم
محققی
تحر
文
方法
تح
##ubw
然后
سیکھتے
##تھم
##izat
mo
##iff
choic
u
拼
کر
##用
相同
تحری
##ئ
حرو
含
cap
##员
فرا
م
حصوں
سمجھنے
##达
##含
模型
##ق
ل
##词
现代
فر
مخت
مشکلا
##s
گف
##hm
کنا
capi
##دا
wa
多语言
الفاظ
编码
چھ
جم
oft
##چ
e
capita
##ڈ
vari
variat
##izati
##mm
##t
بدل
算
hum
##ھم
مالی
##生
理
##v
i
选
او
کری
##جھ
人
کنارے
子词
##名
##化
کے
拼写
算法
##ly
##解
句
بینک
chall
huma
##ں
##ف
##روس
compu
仔细
مط
带来
更好
##ہم
کی
银
قدرت
##xt
var
a
c
##代
ch
اوق
بنا
生僻
پیچ
##mmu
但是
ambiguity
چھوٹ
上下
f
بڑے
انداز
##س
by
##ج
相
##mpl
##个
##b
ق
因
ٹوکنائزر
ج
املا
##z
wr
##ھ
这
مطا
پھ
##mb
wor
s
##impl
##节
歧
##دد
##iz
ہی
##u
有用
##ب
##码
writi
##تعم
قدرتی
##a
处
قدر
حر
##ty
的
##要
بن
subword
多
##g
##d
off
جملو
ذی
جدید
现
上下文
表
##اق
نظ
طر
##نک
wo
计
whil
انسان
##owd
然
##单
##for
##سنگ
زب
因此
##rowd
含义
لیے
##بہ
##ک
exp
wri
byt
##fu
و
ابہا
##据
##ithms
ذ
مف
##w
例
انسا
##好
合
مدد
سباق
می
co
大小写
##o
پ
分词
子
ا
سب
مال
##k
ambig
##و
##وٹر
commu
##خ
可
包
کرتا
经常
##c
ٹوکنا
##ن
##适
##حقق
ذیلی
##rch
such
仔
新
##نگ
اس
ح
根据
مشکل
مع
کن
##此
سیاق
##ل
تحریر
الف
ambi
##写
words
##وس
包含
الگورتھم
معنی
交
##lly
compl
موج
分词器
##thms
##رتھم
مختلف
##ر
##ستعم
这种
##同
复杂
大
پی
大小
有趣
نظام
##建
تھ
choi
of
人类
##عم
اور
##算
میں
تق
ٹوکن
cha
##orithms
پیچی
گ
p
##小
ز
##为
word
##n
带
构
变
amb
##arch
金
##نو
پروسیسنگ
گفتگ
##ئز
##趣
خ
自
##ompu
划
书写
whi
v
##thod
m
ف
th
کمپی
اوقا
##q
##mpu
书
选择
دوسرا
##思
##ع
ambigu
都
fo
##x
##战
意
در
انس
预处
对
预
استعم
##za
capitalizatio
fi
帮助
pu
variati
ٹوکنائزی
##f
سی
محقق
##thods
##کھ
b
تھا
##ommu
研
##是
##oth
一个
把
خدما
##l
##ادہ
l
根
系统
##类
سادہ
经
sp
ہ
##法
构建
گفتگو
مطابق
ط
استعمال
سک
##后
不
##择
##义
ہوتا
##子
交流
单
سکت
فراہم
##i
کمپ
复
理解
##د
计算
##杂
更
挑
مشکلات
给
حروف
ambigui
处理
##人
简
کرتے
##僻
دوس
ٹ
金融
##مپ
طل
银行
##言
حصو
جد
syst
o
划分
词语
ک
##计
خد
algorithms
一
##ص
پروس
ای
ماڈل
sys
لی
表达
##کھتے
##دہ
ہے
变化
بناتے
##izatio
##ال
cho
##گ
subwo
##rithms
spli
to
subw
会
ٹوکنائز
زبانوں
##ز
因为
##ورتھم
جو
استعما
t
spl
##ally
writ
学生
انسانی
variatio
研究人员
##ially
r
##y
پھر
##位
##ش
##本
جمل
پروسی
##分
成
ابہ
##e
##uch
دریا
自然
دوسر
زبا
مشک
زبان
##ح
##ے
##لف
##قے
کرت
人名
##تے
句子
مخ
گفت
مفید
س
capital
##رے
الفا
بی
研究
简单
##融
معن
##习
for
合适
نظا
ذیل
طریقے
comput
##cially
تقسی
##thm
##شن
ہیں
سمجھ
n
分
##اڈل
可以
##ch
موجود
بڑ
设计
چ
کو
##وج
语
##bw
##行
文本
##وٹ
##کھت
crowd
cr
河边
##r
生僻词
ن
##种
سکتے
اند
河
##qui
خدم
##语
不同
##mp
پیچیدہ
##然
##m
##گورتھم
##tho
##ت
ایک
ٹو
جدی
##h
字
帮
split
hu
simpl
##究
##理
字节
##机
##ompl
طری
کریں
##ڈل
diff
sy
pr
生
